<PAD>	0
<SOS>	0
<EOS>	0
<UNK>	0
▁a	-2.28018
▁of	-3.11028
.	-3.15408
▁on	-3.51052
s	-3.52148
▁the	-3.737
▁with	-3.76402
▁and	-3.91427
▁is	-4.19763
▁in	-4.39237
▁white	-4.50907
,	-4.57788
▁it	-4.89873
▁black	-4.97718
▁table	-4.99448
▁bottle	-5.00188
▁to	-5.08272
▁that	-5.0874
▁can	-5.14037
▁box	-5.19498
▁top	-5.2119
▁an	-5.22474
▁blue	-5.27877
'	-5.28673
ing	-5.32068
▁	-5.32522
ed	-5.35574
▁sitting	-5.38235
d	-5.4309
▁red	-5.43596
t	-5.5591
▁green	-5.63
e	-5.65672
▁package	-5.65912
▁person	-5.66654
▁some	-5.67615
▁hand	-5.68198
y	-5.68953
▁for	-5.72215
▁holding	-5.72894
▁has	-5.75168
▁label	-5.81702
er	-5.82086
▁up	-5.83333
▁food	-5.85416
▁counter	-5.89326
▁front	-5.89584
▁picture	-5.90119
▁surface	-5.94599
m	-5.96208
▁wooden	-5.96424
▁screen	-5.99983
al	-6.00795
c	-6.02075
▁plastic	-6.02146
▁yellow	-6.02199
▁container	-6.02966
▁brown	-6.03164
u	-6.0334
▁or	-6.03869
o	-6.05641
▁computer	-6.07289
n	-6.07491
a	-6.0758
▁small	-6.09216
r	-6.11336
-	-6.13275
▁back	-6.1333
▁showing	-6.14967
▁bag	-6.1846
▁someone	-6.19963
▁be	-6.21516
▁background	-6.21599
i	-6.21606
p	-6.22756
▁image	-6.22837
f	-6.24989
▁paper	-6.2799
▁fabric	-6.28678
▁next	-6.30325
▁piece	-6.32981
▁laying	-6.34475
g	-6.3654
▁side	-6.37385
▁from	-6.39847
in	-6.40391
▁light	-6.41781
le	-6.42541
▁floor	-6.42766
▁are	-6.43568
▁shirt	-6.44079
b	-6.44092
▁close	-6.46473
▁brand	-6.46751
▁wall	-6.50176
▁by	-6.50644
▁two	-6.51852
▁dark	-6.52247
▁coffee	-6.52291
▁i	-6.54515
▁pink	-6.60213
▁text	-6.60494
▁s	-6.62985
▁room	-6.66152
▁book	-6.66225
▁colored	-6.69899
ly	-6.70304
▁c	-6.71011
l	-6.71466
k	-6.71539
▁desk	-6.72279
▁grey	-6.7252
▁silver	-6.72574
▁t	-6.73307
en	-6.74485
▁orange	-6.74754
▁wood	-6.7697
▁glass	-6.78975
▁keyboard	-6.80541
▁wearing	-6.81157
▁color	-6.81372
▁product	-6.84835
or	-6.85211
▁frozen	-6.85753
es	-6.85951
▁large	-6.86123
w	-6.86422
▁nutrition	-6.86618
▁shown	-6.86717
▁see	-6.88758
▁part	-6.89531
▁kitchen	-6.89706
▁dog	-6.90094
▁cup	-6.90654
▁device	-6.91841
▁bed	-6.92294
▁phone	-6.93157
▁chicken	-6.95029
▁held	-6.95115
re	-6.95384
ri	-6.95844
▁laptop	-6.98485
ra	-6.98555
▁sits	-6.99386
▁purple	-6.99446
▁f	-6.99629
▁soup	-6.99879
▁object	-7.0006
▁man	-7.00408
▁gray	-7.00861
▁clear	-7.01369
▁g	-7.01562
▁down	-7.02097
"	-7.02911
▁"	-7.02943
▁appear	-7.0518
▁other	-7.0518
▁right	-7.05485
▁like	-7.05747
ch	-7.05825
▁one	-7.07015
z	-7.07154
▁b	-7.08273
▁carpet	-7.08291
▁placed	-7.08363
▁card	-7.10228
▁cloth	-7.11535
▁being	-7.11592
an	-7.1186
▁re	-7.11957
▁open	-7.12793
▁lap	-7.14974
▁tv	-7.15068
▁type	-7.15564
▁cover	-7.16281
▁at	-7.16637
▁car	-7.16929
▁cream	-7.17275
▁containing	-7.18926
▁view	-7.19106
▁out	-7.19291
▁chair	-7.19808
▁p	-7.2016
x	-7.20928
▁sort	-7.21014
▁corner	-7.21672
▁over	-7.2236
▁their	-7.225
▁water	-7.23674
▁jar	-7.24248
ll	-7.24264
▁left	-7.25397
lo	-7.25667
▁k	-7.25746
▁monitor	-7.25855
ro	-7.25956
▁control	-7.26038
▁mix	-7.26521
▁photo	-7.26963
▁buttons	-7.27042
▁which	-7.27056
ic	-7.27799
▁w	-7.28166
▁inside	-7.28368
▁case	-7.28745
▁says	-7.30082
▁pack	-7.30595
▁item	-7.30907
lying	-7.31241
on	-7.3157
▁electronic	-7.31817
h	-7.32616
ol	-7.3269
▁bottom	-7.32895
▁window	-7.33113
▁bar	-7.33236
▁shows	-7.34769
il	-7.34805
ck	-7.34853
el	-7.3494
▁sauce	-7.35088
et	-7.35494
▁door	-7.36152
▁dinner	-7.36406
it	-7.36894
▁look	-7.37463
▁near	-7.37863
ter	-7.38217
▁tea	-7.38728
▁packaging	-7.39412
▁something	-7.40577
▁blanket	-7.40592
▁remote	-7.40682
la	-7.41156
ve	-7.41521
▁set	-7.41926
ar	-7.42993
▁cd	-7.43166
▁pair	-7.44075
▁beans	-7.44367
▁countertop	-7.44497
at	-7.4597
▁m	-7.46203
ry	-7.46993
▁metal	-7.47632
▁this	-7.47644
▁what	-7.48549
▁facts	-7.48896
▁packet	-7.49556
▁tan	-7.49864
ent	-7.50087
▁rest	-7.50137
▁standing	-7.50453
▁instructions	-7.50478
▁sheet	-7.50764
ce	-7.50768
▁button	-7.51385
▁soda	-7.52201
▁information	-7.53149
0	-7.53896
v	-7.54415
▁liquid	-7.54608
▁gold	-7.54857
th	-7.54988
▁design	-7.55592
se	-7.55811
▁drink	-7.55841
▁tin	-7.56267
▁chocolate	-7.56587
▁half	-7.56587
li	-7.57122
▁cap	-7.58486
▁ma	-7.59111
▁flat	-7.59527
▁bright	-7.5976
ation	-7.5989
▁writing	-7.60018
▁written	-7.60927
▁items	-7.61907
▁meal	-7.62176
▁o	-7.62341
▁empty	-7.6277
▁logo	-7.62779
ca	-7.6352
▁v	-7.63658
▁page	-7.63799
▁display	-7.63815
un	-7.64348
▁its	-7.64475
▁stove	-7.64514
▁cheese	-7.64648
▁apple	-7.64706
▁e	-7.64883
▁de	-7.64897
▁sever	-7.64939
us	-7.65234
st	-7.65686
▁hanging	-7.66084
▁pa	-7.66916
▁dvd	-7.67255
▁pictured	-7.68138
▁very	-7.68376
ion	-7.68504
▁bill	-7.68575
▁machine	-7.68796
▁no	-7.68826
▁ch	-7.69151
▁behind	-7.70217
ine	-7.70452
▁hair	-7.7139
▁made	-7.7222
▁wine	-7.72697
te	-7.73779
▁kind	-7.73863
ir	-7.73962
tion	-7.74566
▁against	-7.74906
▁lid	-7.74976
▁about	-7.75064
▁flowers	-7.75493
▁you	-7.75893
to	-7.7618
▁different	-7.76418
▁2	-7.7651
▁not	-7.76714
▁off	-7.77189
▁pattern	-7.77322
▁full	-7.77647
▁lettering	-7.77924
▁lotion	-7.78001
▁three	-7.78574
▁beef	-7.78733
ta	-7.78825
▁here	-7.78901
▁tile	-7.7908
▁contains	-7.7911
▁ingredients	-7.79207
1	-7.79333
▁words	-7.79667
▁round	-7.80618
▁couch	-7.81096
▁various	-7.81255
▁but	-7.81339
▁used	-7.81382
▁unopened	-7.82219
co	-7.8232
ne	-7.82668
am	-7.83055
▁la	-7.83229
▁digital	-7.83374
▁house	-7.83571
▁striped	-7.83572
▁me	-7.83625
▁woman	-7.83847
▁j	-7.84031
▁flower	-7.84192
▁looking	-7.84462
▁do	-7.84692
▁st	-7.84854
▁dollar	-7.85013
sh	-7.85511
▁printed	-7.85821
▁television	-7.8617
▁body	-7.86172
▁mo	-7.87339
ng	-7.87597
▁bowl	-7.87864
▁1	-7.88107
▁ra	-7.88965
ul	-7.88967
▁milk	-7.89413
ke	-7.89439
▁above	-7.90113
▁beer	-7.90337
▁material	-7.90462
ge	-7.90773
▁sa	-7.91248
▁letters	-7.91499
age	-7.91573
▁leg	-7.91776
▁rug	-7.91872
▁edge	-7.91874
▁cord	-7.92573
▁cell	-7.92766
/	-7.93172
▁visible	-7.93304
ver	-7.93671
▁pants	-7.93672
▁pen	-7.94039
▁displaying	-7.94145
▁bo	-7.94531
▁ground	-7.9494
▁medicine	-7.9494
▁flavored	-7.94976
▁cat	-7.95104
▁microwave	-7.95275
▁face	-7.95356
▁r	-7.95841
▁cardboard	-7.95886
▁plant	-7.96418
▁game	-7.9642
▁single	-7.96607
▁leather	-7.9679
ie	-7.96833
ti	-7.96902
▁clothing	-7.97004
▁time	-7.9738
▁thermostat	-7.97729
▁old	-7.97923
▁long	-7.97939
▁meat	-7.97987
▁turned	-7.98183
▁number	-7.98581
▁pasta	-7.98868
▁un	-7.98941
▁shelf	-7.99248
um	-7.99511
ish	-8.00042
▁beige	-8.0021
▁frame	-8.00355
▁3	-8.00593
▁chips	-8.00684
ma	-8.01538
▁tube	-8.01716
is	-8.02076
▁tomato	-8.02244
▁com	-8.02553
able	-8.031
▁campbell	-8.0335
▁windows	-8.03709
▁mouse	-8.0375
▁juice	-8.0395
op	-8.04623
▁there	-8.05349
▁hot	-8.05536
▁camera	-8.05568
▁h	-8.05758
▁seen	-8.05758
▁l	-8.06122
▁corn	-8.06302
▁sp	-8.06689
▁fan	-8.07088
▁stand	-8.07369
▁keys	-8.07463
▁his	-8.07929
▁toy	-8.08058
▁pot	-8.08108
5	-8.08573
ct	-8.09069
▁ho	-8.099
▁jeans	-8.09911
▁arm	-8.10501
▁butter	-8.10667
▁pillow	-8.10814
▁pu	-8.10846
▁partial	-8.10892
▁so	-8.10938
▁flavor	-8.11403
▁di	-8.11589
ting	-8.11616
▁square	-8.11662
▁co	-8.12189
▁plate	-8.12315
ive	-8.12396
ure	-8.12536
▁middle	-8.12752
de	-8.12989
▁outside	-8.13218
▁opened	-8.13386
▁displayed	-8.1375
▁tree	-8.13785
▁floral	-8.13853
▁sink	-8.14298
▁all	-8.14932
ment	-8.15045
▁sh	-8.15355
▁cooking	-8.15389
▁cabinet	-8.15415
mp	-8.15643
living	-8.15683
▁hard	-8.15896
2	-8.16016
pe	-8.16148
▁word	-8.16325
▁home	-8.16342
▁legs	-8.18289
▁clock	-8.18384
▁po	-8.18874
▁dial	-8.18888
ow	-8.18916
▁sun	-8.19896
▁them	-8.19907
▁center	-8.2002
▁oven	-8.20255
▁towel	-8.20257
▁snack	-8.20729
▁pre	-8.20913
▁foot	-8.20966
▁rice	-8.20967
▁line	-8.20997
▁su	-8.21026
▁n	-8.21448
▁around	-8.21682
▁spray	-8.21682
ies	-8.2171
▁numbers	-8.22042
pa	-8.2214
▁du	-8.22998
ant	-8.23015
▁con	-8.23023
ty	-8.23055
▁pizza	-8.2313
▁wire	-8.23484
vi	-8.23549
ate	-8.23838
up	-8.23911
▁4	-8.2404
▁barcode	-8.24106
▁four	-8.24175
▁cereal	-8.24352
▁head	-8.24434
▁called	-8.24905
3	-8.25097
▁print	-8.25139
▁blurry	-8.25341
▁portion	-8.2559
▁shoe	-8.25601
na	-8.25631
▁mug	-8.25665
top	-8.26031
▁bathroom	-8.2634
▁area	-8.26575
▁shampoo	-8.26843
▁office	-8.26845
▁fruit	-8.27095
▁music	-8.2736
▁many	-8.27584
▁stripes	-8.27901
▁panel	-8.28156
ard	-8.28816
▁dish	-8.28963
▁trees	-8.29221
▁fa	-8.29424
▁list	-8.29547
▁name	-8.2969
▁cook	-8.29897
▁stuff	-8.30177
▁soap	-8.30177
▁filled	-8.30308
ers	-8.3054
ba	-8.31447
▁sky	-8.31756
▁featur	-8.32019
▁handle	-8.32584
▁candy	-8.32587
ny	-8.3261
▁style	-8.32925
bo	-8.33105
▁lamp	-8.33404
▁te	-8.33774
▁pepper	-8.33895
▁good	-8.34167
▁seasoning	-8.34711
▁holds	-8.34857
▁mat	-8.35126
▁another	-8.35259
▁multiple	-8.35825
▁sign	-8.36362
▁ceiling	-8.36918
▁ice	-8.36999
mi	-8.37232
▁store	-8.37501
port	-8.37505
▁canned	-8.37508
▁into	-8.37525
▁7	-8.3809
▁colorful	-8.38606
▁was	-8.38629
4	-8.3864
ist	-8.39013
▁tag	-8.39023
▁lot	-8.39361
8	-8.39541
▁sea	-8.3958
▁li	-8.39618
▁covered	-8.39656
▁d	-8.40041
▁cut	-8.40057
son	-8.40074
9	-8.40116
▁he	-8.40354
▁ro	-8.40435
:	-8.40611
▁da	-8.41062
▁knob	-8.41192
▁marble	-8.41193
▁coca	-8.41262
▁soft	-8.41484
▁pro	-8.41972
▁sweet	-8.42069
▁power	-8.4207
▁se	-8.42077
led	-8.42131
▁dress	-8.42463
▁temperature	-8.42658
▁sweater	-8.42954
▁wash	-8.43388
▁value	-8.44146
▁end	-8.4422
▁diet	-8.44239
da	-8.44424
▁under	-8.44751
ia	-8.44791
6	-8.44861
▁directions	-8.4505
ast	-8.45063
▁disc	-8.45133
▁dr	-8.45145
▁ball	-8.45433
▁multi	-8.4563
▁code	-8.45712
her	-8.4622
▁granite	-8.46268
▁setting	-8.46356
shirt	-8.4639
▁lo	-8.46437
▁upside	-8.46721
▁shoes	-8.4687
▁vegetables	-8.47023
▁along	-8.47202
▁salt	-8.47215
▁read	-8.47456
▁leaves	-8.475
▁feet	-8.47851
▁finger	-8.47984
▁wi	-8.48023
▁ha	-8.48055
di	-8.48121
▁shorts	-8.4853
▁fl	-8.48554
▁partially	-8.48615
▁big	-8.48631
▁date	-8.48728
▁vi	-8.48818
▁across	-8.49063
▁use	-8.49153
▁closed	-8.49193
▁movie	-8.49379
art	-8.49475
▁beverage	-8.49695
▁potato	-8.50536
▁attached	-8.5065
▁roll	-8.51054
ph	-8.51187
▁new	-8.51389
▁human	-8.51615
j	-8.51766
▁folded	-8.51938
▁sta	-8.52173
▁mountain	-8.52263
per	-8.52283
laid	-8.52391
que	-8.5256
▁sticker	-8.52613
▁possibly	-8.52985
one	-8.53219
▁work	-8.53485
▁mi	-8.53554
est	-8.53583
ill	-8.53776
▁cola	-8.53873
▁rectangular	-8.53902
▁size	-8.54187
▁well	-8.54297
our	-8.54544
▁ba	-8.54603
▁lemon	-8.54889
▁cake	-8.549
▁wrapped	-8.54906
▁free	-8.54909
ped	-8.55428
▁speaker	-8.55569
▁air	-8.55614
▁pie	-8.55677
▁building	-8.55906
▁curtain	-8.55906
have	-8.56071
▁roast	-8.56471
▁eye	-8.56615
out	-8.56863
▁shaped	-8.56889
▁through	-8.56923
▁shiny	-8.56924
▁us	-8.57089
▁currency	-8.57264
▁peanut	-8.57268
▁note	-8.57736
▁pepsi	-8.5795
▁tomatoes	-8.58151
▁video	-8.58295
▁th	-8.58393
▁too	-8.58423
▁yogurt	-8.58641
▁stick	-8.58735
▁supplement	-8.59337
▁pocket	-8.59337
▁heart	-8.59363
▁beside	-8.59451
▁pi	-8.59476
▁patterned	-8.59718
▁unit	-8.60163
no	-8.60494
▁fish	-8.60561
▁grain	-8.60561
▁christmas	-8.61097
▁ne	-8.61518
ect	-8.62785
▁playing	-8.62814
be	-8.63033
▁reads	-8.63072
▁mushroom	-8.63252
▁ready	-8.63283
▁we	-8.63295
ted	-8.63443
▁aluminum	-8.63615
▁gra	-8.63768
▁little	-8.63981
and	-8.64
▁cable	-8.64201
▁natural	-8.64347
▁sleeve	-8.64347
▁collar	-8.64715
▁men	-8.64828
▁captcha	-8.65083
▁whole	-8.65208
▁five	-8.6524
▁content	-8.65454
man	-8.65518
▁labeled	-8.65743
▁degrees	-8.65787
▁facing	-8.65827
▁desktop	-8.66009
▁thin	-8.66027
▁5	-8.66071
▁system	-8.66199
ple	-8.6622
▁carton	-8.66274
▁hi	-8.66392
▁watch	-8.66573
▁bunch	-8.66573
▁spice	-8.6663
▁show	-8.66803
▁washing	-8.66813
ary	-8.669
▁baby	-8.67327
rn	-8.67347
▁few	-8.67404
▁go	-8.67519
▁shot	-8.68087
▁grass	-8.68218
▁great	-8.68467
▁bread	-8.68585
▁people	-8.6885
▁potatoes	-8.68988
▁tape	-8.69079
▁medication	-8.69235
▁colors	-8.69528
▁cur	-8.6956
▁packaged	-8.69698
▁iphone	-8.70008
▁dirty	-8.70009
▁pill	-8.70313
▁ta	-8.70388
▁foreground	-8.70398
▁pan	-8.70592
▁cookies	-8.70664
▁vanilla	-8.7118
▁ear	-8.71369
▁seat	-8.71592
ring	-8.71603
▁ring	-8.71962
▁french	-8.71969
ton	-8.72229
cup	-8.7268
▁each	-8.72765
▁rests	-8.72778
▁coke	-8.72838
▁cleaner	-8.73034
▁animal	-8.74374
▁choice	-8.74374
▁ounce	-8.74374
ha	-8.7459
light	-8.74684
▁na	-8.75349
▁6	-8.75445
▁star	-8.75445
▁&	-8.7551
▁conditioner	-8.75599
▁original	-8.75599
▁point	-8.75701
▁electric	-8.75761
king	-8.75791
▁your	-8.75794
▁nut	-8.75861
▁bi	-8.75942
▁pop	-8.75966
▁magazine	-8.76424
▁ex	-8.76653
▁eat	-8.76711
▁pad	-8.76877
7	-8.77181
▁si	-8.77217
▁golden	-8.77244
▁tablecloth	-8.77255
▁palm	-8.77269
▁sit	-8.77272
▁boxes	-8.77586
▁sugar	-8.77674
▁skin	-8.78175
▁dry	-8.7824
▁board	-8.78491
▁egg	-8.78517
▁clothes	-8.78702
▁cushion	-8.78939
▁key	-8.79276
▁objects	-8.79503
ling	-8.79521
▁bedroom	-8.79792
▁fresh	-8.79792
▁dresser	-8.79797
▁lays	-8.79818
va	-8.79924
▁stain	-8.80019
▁reading	-8.8004
▁high	-8.80222
▁while	-8.80652
line	-8.8071
▁cigarette	-8.81085
less	-8.81246
▁lit	-8.81495
▁tissue	-8.8152
▁toilet	-8.81522
▁been	-8.81832
▁app	-8.81889
q	-8.81953
▁blind	-8.81957
▁below	-8.81958
▁/	-8.82277
▁player	-8.82653
land	-8.8269
▁circular	-8.82836
▁furniture	-8.82836
▁message	-8.82836
▁still	-8.82892
▁make	-8.83185
▁foreign	-8.83278
▁circle	-8.83723
▁unknown	-8.83723
▁closeup	-8.84019
▁gel	-8.84127
▁cha	-8.84398
▁blank	-8.84551
▁how	-8.85077
▁cr	-8.85223
▁mark	-8.85328
▁her	-8.85408
nder	-8.85447
▁question	-8.85521
▁spaghetti	-8.85521
▁radio	-8.85521
▁also	-8.85527
▁sealed	-8.85557
ated	-8.85576
▁vitamin	-8.85975
▁fingers	-8.86188
▁art	-8.86255
ig	-8.86384
▁steak	-8.86432
▁chairs	-8.86869
▁description	-8.86891
ous	-8.87297
▁appliance	-8.87351
▁keurig	-8.87351
▁powder	-8.87351
▁blend	-8.87359
▁jacket	-8.88307
▁place	-8.88311
ould	-8.88476
▁20	-8.8867
▁women	-8.88747
▁wrist	-8.88747
▁dell	-8.89308
▁pills	-8.89494
▁depict	-8.90162
▁who	-8.9045
tic	-8.90518
▁candle	-8.90669
▁cla	-8.90749
▁microwavable	-8.91117
ga	-8.9122
▁describ	-8.91597
▁running	-8.91597
▁chili	-8.91598
▁branded	-8.91783
go	-8.91807
▁test	-8.91957
▁tiled	-8.91977
wn	-8.92208
▁per	-8.92366
▁between	-8.92566
▁character	-8.92566
▁couple	-8.92566
▁section	-8.92566
▁sofa	-8.92567
▁plaid	-8.92679
▁pod	-8.92762
ical	-8.92781
▁8	-8.92916
▁low	-8.92996
▁bars	-8.93108
▁mini	-8.9312
▁10	-8.93135
▁hanger	-8.93284
way	-8.93473
▁screenshot	-8.93544
▁including	-8.94036
ight	-8.94372
▁sausage	-8.94532
▁instant	-8.94533
▁math	-8.94855
▁pure	-8.94921
▁painting	-8.95029
▁cross	-8.9503
ity	-8.9503
▁shape	-8.95148
▁fat	-8.95152
▁clean	-8.95202
▁12	-8.95613
▁street	-8.96032
▁lines	-8.96039
▁cartoon	-8.96537
▁vase	-8.97045
▁language	-8.97554
▁macaroni	-8.97554
▁telephone	-8.97554
qui	-8.97603
plugged	-8.97693
▁lies	-8.97825
ran	-8.98291
▁hat	-8.98371
▁upper	-8.99074
▁bra	-8.99123
not	-8.99603
▁girl	-9.00146
▁scent	-9.00147
▁baked	-9.00437
▁walk	-9.00698
che	-9.00772
▁lower	-9.00991
▁denim	-9.01201
▁surround	-9.01201
▁wrinkled	-9.01201
▁holder	-9.01424
bu	-9.01454
▁pet	-9.01691
▁underneath	-9.01733
▁expir	-9.01733
▁price	-9.01733
▁strip	-9.01883
▁fri	-9.02045
▁fe	-9.02175
▁horizontal	-9.02267
▁leaf	-9.02267
▁menu	-9.02655
▁wrapper	-9.02817
▁day	-9.02893
▁noodles	-9.03053
▁noodle	-9.03096
▁vegetable	-9.03098
▁tray	-9.03349
▁where	-9.0337
▁contain	-9.03375
▁mostly	-9.03972
▁neck	-9.0399
▁tall	-9.03996
▁pull	-9.04083
▁substance	-9.04435
▁knee	-9.04989
▁lime	-9.05008
▁cleaning	-9.05527
▁honey	-9.05538
wood	-9.056
▁short	-9.05925
▁shelves	-9.06093
▁smartphone	-9.06093
▁taken	-9.0625
▁oz	-9.0646
▁company	-9.06651
▁headphones	-9.06651
▁mounted	-9.06651
▁classic	-9.06652
▁bird	-9.06654
▁lean	-9.06658
▁bear	-9.06821
▁bit	-9.07031
▁9	-9.07053
▁medium	-9.07213
aid	-9.07324
▁poster	-9.07498
▁tri	-9.07577
▁children	-9.07779
▁laundry	-9.08346
▁sock	-9.09
▁peas	-9.09363
▁oil	-9.09783
ome	-9.09883
▁tie	-9.09968
▁socks	-9.10163
▁serving	-9.10652
▁child	-9.10653
ible	-9.10723
▁mu	-9.11086
▁spices	-9.11154
▁organic	-9.11237
▁flash	-9.11237
ware	-9.11281
▁shower	-9.11705
▁textured	-9.11827
▁shade	-9.11899
▁dressing	-9.12216
▁symbol	-9.12417
▁touch	-9.12433
▁boot	-9.12467
▁gum	-9.12705
▁tee	-9.12856
▁outdoor	-9.13012
▁nothing	-9.13014
▁advertisement	-9.13611
▁gift	-9.13611
▁crock	-9.13612
▁worn	-9.13613
▁rock	-9.13752
▁letter	-9.13784
▁trim	-9.13887
▁just	-9.14284
▁mirror	-9.14819
▁healthy	-9.14993
▁drawer	-9.15429
▁trash	-9.15429
▁band	-9.15575
▁polo	-9.15612
side	-9.15666
tte	-9.15803
for	-9.1601
▁money	-9.16043
ness	-9.16051
board	-9.16127
▁play	-9.16428
▁almond	-9.1666
▁broccoli	-9.1666
▁quality	-9.1666
▁sleep	-9.1666
▁turkey	-9.1666
▁extra	-9.1666
▁american	-9.168
▁lite	-9.17206
▁garlic	-9.17281
▁recipe	-9.17281
▁currently	-9.17906
▁salad	-9.17907
&	-9.18042
00	-9.18099
▁charger	-9.18535
▁scale	-9.18536
▁cotton	-9.18566
▁covering	-9.19077
▁purse	-9.19168
▁fur	-9.1918
▁wheel	-9.19187
▁titled	-9.19565
▁basket	-9.19805
▁printer	-9.1994
▁framed	-9.19963
▁tub	-9.19979
ppy	-9.20231
▁special	-9.20446
▁easy	-9.20446
▁install	-9.20446
▁smart	-9.20447
▁cherry	-9.20447
▁bead	-9.20515
vel	-9.20631
▁backside	-9.20674
▁cookie	-9.20804
▁kit	-9.21011
▁equipment	-9.21091
▁base	-9.21112
▁dots	-9.21133
▁blu	-9.21397
▁x	-9.21471
▁envelope	-9.2174
▁warning	-9.2174
▁block	-9.21741
▁sized	-9.21946
)	-9.22394
▁perfume	-9.22394
▁alarm	-9.22394
▁del	-9.22465
▁mari	-9.22997
▁keep	-9.23052
▁record	-9.23052
▁banana	-9.23714
▁clouds	-9.23714
▁necklace	-9.23714
▁restaurant	-9.23714
▁ginger	-9.23727
▁usb	-9.24032
▁dew	-9.24231
ade	-9.24254
▁mar	-9.24584
▁baseball	-9.25052
▁graphic	-9.25052
▁fence	-9.25053
work	-9.25237
▁straw	-9.25728
▁plain	-9.25728
▁strap	-9.25802
▁chest	-9.25834
▁photograph	-9.26024
▁alcohol	-9.26408
▁bath	-9.2652
▁roasted	-9.26684
▁post	-9.26947
▁brick	-9.27093
▁space	-9.27094
▁road	-9.27095
▁kid	-9.27099
▁(	-9.27115
▁plug	-9.27595
▁mac	-9.27771
▁granola	-9.27782
▁problem	-9.27782
▁drawing	-9.28477
▁spoon	-9.28477
▁mobile	-9.28565
▁title	-9.28741
▁sliced	-9.28768
▁sha	-9.28779
ok	-9.28901
▁slightly	-9.29176
▁steel	-9.29178
▁night	-9.29214
mber	-9.29313
▁zipper	-9.29894
▁stack	-9.30252
▁breast	-9.3059
▁need	-9.30846
▁herb	-9.30861
▁200	-9.31005
▁ni	-9.31123
▁popcorn	-9.31304
▁woven	-9.31304
▁pencil	-9.31304
▁sideways	-9.31311
▁spot	-9.31312
▁parked	-9.31571
▁detergent	-9.32023
▁together	-9.32023
▁shadow	-9.32023
colored	-9.32237
▁ceramic	-9.32748
▁sanitizer	-9.32748
▁vertical	-9.32748
▁crackers	-9.32774
ance	-9.32847
▁electrical	-9.33189
▁individual	-9.33478
▁napkin	-9.33478
▁smooth	-9.33478
▁em	-9.33539
▁article	-9.34213
▁maker	-9.34589
▁reflect	-9.34907
▁coconut	-9.34954
▁check	-9.34954
▁complete	-9.34954
▁kool	-9.34955
▁serve	-9.34972
▁things	-9.34996
▁progresso	-9.35022
▁may	-9.35379
▁drive	-9.35794
▁cool	-9.35952
▁decorati	-9.36383
▁win	-9.36395
▁mint	-9.3646
▁pea	-9.36538
▁going	-9.36701
▁fireplace	-9.3721
▁stereo	-9.3721
▁metallic	-9.37212
▁chunky	-9.37327
▁tell	-9.37409
▁bean	-9.37665
▁microsoft	-9.37973
▁controller	-9.37979
▁jean	-9.38093
▁italian	-9.38742
▁bush	-9.38744
▁dining	-9.38749
ular	-9.39448
▁pound	-9.39519
▁saying	-9.39525
▁stone	-9.39623
▁both	-9.39747
nut	-9.3992
▁twi	-9.4012
▁glasses	-9.40296
▁comforter	-9.40299
▁draped	-9.40299
▁indicat	-9.40302
▁pile	-9.40665
▁creamer	-9.40701
▁bake	-9.40864
▁take	-9.40965
▁guitar	-9.41086
▁sandwich	-9.41086
▁hung	-9.41087
▁checkered	-9.41088
▁jug	-9.41251
▁cylindrical	-9.4188
▁border	-9.4188
▁led	-9.41938
▁string	-9.41968
▁refrigerator	-9.4268
▁audio	-9.4268
▁tarot	-9.4268
▁notebook	-9.42692
▁country	-9.42702
▁decoration	-9.42753
▁rack	-9.42987
▁peach	-9.4346
▁load	-9.43495
▁microwaveable	-9.4363
▁zero	-9.44299
▁thumb	-9.44299
▁maybe	-9.4432
▁wireless	-9.4435
▁most	-9.44443
▁chain	-9.44606
▁stacked	-9.4485
▁breakfast	-9.45119
▁entertainment	-9.45119
▁instruction	-9.45473
▁lace	-9.45515
%	-9.45938
▁english	-9.45945
▁flip	-9.45947
▁fire	-9.45963
▁rose	-9.46255
▁hold	-9.46327
ize	-9.46776
▁compact	-9.46779
▁twenty	-9.46779
▁visual	-9.46779
▁start	-9.46924
cola	-9.47464
▁pudding	-9.47619
▁relief	-9.47619
▁drug	-9.4762
▁bank	-9.47621
▁ipad	-9.47621
▁cinnamon	-9.48466
▁grocer	-9.48466
▁placemat	-9.48467
▁doll	-9.48762
▁chip	-9.48938
▁wallet	-9.48939
▁sam	-9.49022
ime	-9.49099
▁samsung	-9.49321
▁garden	-9.49321
▁macbook	-9.49328
▁100	-9.49489
▁truck	-9.50183
▁figure	-9.50183
▁super	-9.50265
▁six	-9.50339
▁lock	-9.50373
▁weight	-9.50385
▁hamburger	-9.51053
▁painted	-9.51053
▁taking	-9.51091
▁ju	-9.51586
▁polka	-9.5193
▁website	-9.5193
▁switch	-9.5193
▁thick	-9.5193
▁braille	-9.51931
▁illustration	-9.51942
▁pick	-9.521
▁deodorant	-9.52815
▁diamond	-9.52815
▁tower	-9.52861
▁ham	-9.53416
▁heat	-9.53652
▁speckled	-9.53708
▁horse	-9.53709
▁plus	-9.53709
▁foil	-9.5371
▁wipes	-9.53711
▁outlet	-9.53715
▁way	-9.53718
▁disk	-9.53729
▁reflection	-9.53764
▁mash	-9.53987
▁50	-9.54283
▁coin	-9.54426
▁kroger	-9.54609
▁newspaper	-9.54609
▁error	-9.54609
▁select	-9.5461
▁baking	-9.54656
▁photographer	-9.5512
▁hp	-9.55503
▁nestle	-9.55519
▁measur	-9.55519
tty	-9.56076
▁wear	-9.56097
▁marker	-9.56357
▁starbucks	-9.56435
▁sandal	-9.56436
▁yard	-9.56441
▁row	-9.5692
▁wrap	-9.57321
▁calorie	-9.57361
▁grill	-9.57363
▁pork	-9.57364
▁cold	-9.57368
▁hang	-9.57469
ither	-9.57563
▁spread	-9.58296
▁copy	-9.58301
▁states	-9.58306
made	-9.58311
▁nice	-9.58383
▁parking	-9.58658
▁fill	-9.58986
▁concrete	-9.59239
▁muffin	-9.59239
▁quilt	-9.59239
▁scratch	-9.59239
▁album	-9.59239
▁nearby	-9.59244
▁knitted	-9.59256
▁spinach	-9.60191
▁carrots	-9.60192
▁crunch	-9.60192
▁repair	-9.60192
▁broth	-9.60192
▁sachet	-9.60192
▁giant	-9.60192
▁assort	-9.60195
▁patch	-9.60196
▁ingredient	-9.61101
▁recognize	-9.61153
▁minute	-9.61154
▁capture	-9.61154
▁heating	-9.61686
▁crack	-9.6209
▁lasagna	-9.62124
▁mustard	-9.62124
▁gravy	-9.62124
▁toaster	-9.6213
▁lawn	-9.62207
▁grape	-9.62211
▁press	-9.62487
▁kraft	-9.63104
▁vehicle	-9.63104
▁icon	-9.63113
▁fillet	-9.63175
▁user	-9.63237
▁cluttered	-9.63267
▁direct	-9.64094
▁almost	-9.64094
▁cheddar	-9.64094
▁prepared	-9.64094
▁burger	-9.64095
▁wrapping	-9.64095
ennis	-9.64097
▁far	-9.64124
▁stripe	-9.64315
▁aid	-9.64316
▁probab	-9.65095
▁portable	-9.65095
▁font	-9.65098
▁seems	-9.65215
▁coat	-9.65301
▁than	-9.65338
▁city	-9.65345
▁connected	-9.65405
▁bracelet	-9.66104
▁condensed	-9.66104
▁sneaker	-9.66104
▁transparent	-9.66104
▁yarn	-9.66104
▁arrow	-9.66105
▁messy	-9.66106
▁present	-9.66112
▁tab	-9.67025
▁beautiful	-9.67125
▁issues	-9.67127
▁olive	-9.67127
▁canister	-9.67136
▁love	-9.67353
▁swi	-9.67565
▁nokia	-9.68156
▁clip	-9.68158
▁talk	-9.68269
▁pump	-9.68298
▁slice	-9.68762
▁bookshelf	-9.69197
▁strawberry	-9.69197
▁playstation	-9.69198
▁polish	-9.69198
▁shaker	-9.69198
▁pouch	-9.69199
▁answer	-9.692
▁diced	-9.69205
▁harr	-9.69386
▁brush	-9.7025
▁fuzzy	-9.7025
▁school	-9.7025
▁spanish	-9.7025
▁scene	-9.70251
▁prompt	-9.70251
▁else	-9.70254
▁treat	-9.70256
▁joe	-9.70256
▁textbook	-9.7037
▁farm	-9.70531
▁potter	-9.70568
▁model	-9.70616
▁sunglasses	-9.71314
▁sweatshirt	-9.71314
▁life	-9.7132
▁outline	-9.71505
▁heater	-9.71669
▁web	-9.71789
▁oatmeal	-9.72389
▁shoulder	-9.7239
▁german	-9.7239
▁flag	-9.72392
▁driveway	-9.72408
amel	-9.72928
▁mode	-9.73413
▁battery	-9.73476
▁stouffer	-9.73476
▁toothpaste	-9.73476
▁utensil	-9.73476
▁smok	-9.73477
▁oval	-9.73477
▁hunt	-9.73481
▁chef	-9.73483
▁iron	-9.73486
▁spring	-9.73574
▁gas	-9.73611
▁pint	-9.73825
▁more	-9.74094
▁zip	-9.74563
▁alfredo	-9.74575
▁collection	-9.74575
▁decorated	-9.74575
▁identi	-9.74585
▁raisin	-9.74631
like	-9.75537
▁business	-9.75686
▁figurine	-9.75686
▁focus	-9.75686
▁include	-9.75686
▁service	-9.75686
▁garment	-9.75686
▁nature	-9.75687
▁patio	-9.75687
▁burner	-9.75687
▁belt	-9.75705
▁wheat	-9.75718
solid	-9.75912
▁knit	-9.76791
▁bedspread	-9.7681
▁hazelnut	-9.7681
▁detail	-9.7681
▁bacon	-9.76811
▁jack	-9.7788
▁jewel	-9.77946
▁dispenser	-9.77946
▁pregnancy	-9.77946
▁crease	-9.77946
▁year	-9.77946
▁navy	-9.77947
▁jell	-9.78061
▁peaches	-9.7811
▁shop	-9.7811
▁24	-9.78119
▁toward	-9.78138
▁helper	-9.78145
▁callender	-9.79096
▁cloudy	-9.79096
▁entire	-9.79096
▁somebody	-9.79096
▁vacuum	-9.79096
▁variety	-9.79096
▁travel	-9.79096
▁sprite	-9.79096
▁shining	-9.791
▁nail	-9.79285
▁turn	-9.79783
▁gallon	-9.80258
▁group	-9.80259
▁ski	-9.80608
▁health	-9.81097
▁perhaps	-9.81435
▁slipper	-9.81435
▁ipod	-9.81435
▁flyer	-9.81446
▁fluffy	-9.82625
▁program	-9.82625
▁aqua	-9.82625
▁monte	-9.82627
book	-9.83215
▁blueberry	-9.8383
▁crumpled	-9.8383
▁energy	-9.8383
▁field	-9.8383
▁meatballs	-9.8383
▁remov	-9.83831
▁snow	-9.83832
▁lamb	-9.83834
▁moisturiz	-9.8505
▁rectangle	-9.8505
▁tesco	-9.85056
▁doorway	-9.8521
▁scissors	-9.86284
▁shrimp	-9.86284
▁queen	-9.86286
▁manual	-9.86295
▁bud	-9.86312
▁cordless	-9.8639
▁tip	-9.86985
▁cough	-9.87534
▁double	-9.87534
▁folder	-9.87534
▁chinese	-9.87534
▁rubber	-9.87535
▁protect	-9.87535
▁gener	-9.8754
▁bold	-9.87543
▁100%	-9.87545
▁lady	-9.87545
▁own	-9.87676
▁15	-9.87762
having	-9.87775
style	-9.88339
annel	-9.88772
▁caucasian	-9.888
▁extreme	-9.888
▁kernel	-9.888
▁mattress	-9.888
▁zoomed	-9.888
▁statue	-9.888
▁family	-9.888
▁chew	-9.88805
▁fancy	-9.88805
▁startup	-9.88843
▁flour	-9.8888
▁park	-9.89114
▁mill	-9.89336
▁allergy	-9.90082
▁knife	-9.90082
▁stapler	-9.90082
▁pumpkin	-9.90082
▁numer	-9.90083
▁backyard	-9.90086
▁tuna	-9.90086
▁wild	-9.90088
▁multicolored	-9.9012
▁stretch	-9.91381
▁charging	-9.91381
▁pamphlet	-9.91381
▁stitching	-9.91381
▁thermometer	-9.91381
▁traditional	-9.91381
▁treadmill	-9.91381
▁coupon	-9.91381
▁storage	-9.91381
▁lead	-9.91381
▁series	-9.91384
▁drops	-9.91385
▁story	-9.91385
ddy	-9.92239
▁calculator	-9.92697
▁embroidered	-9.92697
▁valley	-9.92697
▁world	-9.92697
▁mouth	-9.92698
▁dried	-9.92704
▁hook	-9.92757
▁file	-9.92791
ship	-9.92983
▁blonde	-9.9403
▁dessert	-9.9403
▁meatloaf	-9.9403
▁sodium	-9.9403
▁coaster	-9.9403
▁first	-9.9403
▁roni	-9.94033
▁santa	-9.94034
▁stamp	-9.94174
▁sony	-9.94201
white	-9.94889
▁giv	-9.95009
▁calendar	-9.95381
▁kidney	-9.95382
▁router	-9.95382
▁speed	-9.95396
▁step	-9.95456
▁potted	-9.95514
▁taco	-9.95529
▁cheerios	-9.96751
▁pineapple	-9.96751
▁sparkl	-9.96751
▁crisp	-9.96752
▁garba	-9.96753
▁train	-9.96755
▁might	-9.96916
▁info	-9.97459
▁cranberry	-9.9814
▁mexican	-9.9814
▁arabic	-9.9814
▁snap	-9.98142
▁throw	-9.98144
▁song	-9.98377
▁conditioning	-9.99548
▁peppermint	-9.99548
▁similar	-9.99548
▁wrinkles	-9.99548
▁bulb	-9.9955
▁steam	-9.9955
▁missing	-9.9955
▁root	-9.99553
▁unidentifiable	-9.99561
▁johnson	-9.99572
idge	-10.0045
▁cott	-10.0095
▁exercise	-10.0098
▁hallway	-10.0098
▁drawn	-10.0098
▁kept	-10.0098
▁process	-10.0098
▁fridge	-10.0098
▁piano	-10.0098
▁candies	-10.01
▁slid	-10.0104
stick	-10.0196
▁john	-10.024
▁citrus	-10.0243
▁club	-10.0243
▁document	-10.0243
▁ketchup	-10.0243
▁khaki	-10.0243
▁thread	-10.0243
▁volume	-10.0243
▁pepperoni	-10.0243
▁shopping	-10.0243
▁seven	-10.0243
▁stock	-10.0243
▁swirl	-10.0244
▁unclear	-10.0247
▁celery	-10.039
▁console	-10.039
▁guide	-10.039
▁schwan	-10.039
▁styrofoam	-10.039
▁ticket	-10.039
▁crumb	-10.039
▁upright	-10.039
▁booklet	-10.0392
▁paste	-10.0425
head	-10.049
▁banquet	-10.0539
▁kellogg	-10.0539
▁snapshot	-10.0539
▁syrup	-10.0539
wards	-10.0608
mark	-10.0643
▁gourmet	-10.069
▁track	-10.0691
▁lemonade	-10.0695
▁bur	-10.0747
▁connect	-10.0797
▁blood	-10.0844
▁leash	-10.0844
▁position	-10.0844
▁sidewalk	-10.0844
▁premium	-10.0844
▁maroon	-10.0844
▁grand	-10.0845
erial	-10.0899
house	-10.0953
print	-10.0954
▁birthday	-10.1001
▁creme	-10.1001
▁household	-10.1001
▁liquor	-10.1001
▁upholster	-10.1001
▁cafe	-10.1001
▁distance	-10.1001
▁ornament	-10.1001
▁wool	-10.1001
▁porch	-10.1001
▁popular	-10.1004
ropped	-10.1024
bread	-10.111
▁america	-10.1123
▁possibl	-10.1127
▁advertising	-10.1159
▁amount	-10.1159
▁quaker	-10.1159
▁raspberry	-10.1159
▁ribbon	-10.1159
▁triangle	-10.1159
▁laminate	-10.1159
▁cocoa	-10.1159
▁spicy	-10.1159
▁ranch	-10.116
▁beach	-10.116
▁stem	-10.1161
▁2012	-10.1321
▁cassette	-10.1321
▁crystal	-10.1321
▁female	-10.1321
▁torso	-10.1321
▁range	-10.1348
▁dough	-10.1484
▁cologne	-10.1485
▁gevalia	-10.1485
▁pancake	-10.1485
▁cash	-10.1485
▁bug	-10.1486
▁brit	-10.1489
▁creek	-10.1651
▁emblem	-10.1651
▁hormel	-10.1651
▁pretzel	-10.1651
▁second	-10.1651
▁shelving	-10.1651
▁reach	-10.1652
cause	-10.1652
▁south	-10.1653
▁enter	-10.1654
▁help	-10.1791
▁blurred	-10.1821
▁celestial	-10.1821
▁marshall	-10.1821
▁solution	-10.1821
▁lunch	-10.1821
▁every	-10.1821
▁reduce	-10.1829
▁rotat	-10.1855
▁ashtray	-10.1993
▁beauty	-10.1993
▁fragrance	-10.1993
▁microphone	-10.1993
▁pillsbury	-10.1993
▁screw	-10.1993
▁security	-10.1993
▁blackberry	-10.1993
▁wallpaper	-10.1993
▁regular	-10.1993
▁sound	-10.1993
▁butterfly	-10.1993
▁sharp	-10.1993
▁daily	-10.1993
▁trans	-10.1994
▁hug	-10.2004
▁address	-10.2169
▁boyardee	-10.2169
▁fudge	-10.2169
▁mccormick	-10.2169
▁application	-10.2169
▁condiment	-10.2169
▁football	-10.2169
▁backpack	-10.2169
▁scout	-10.2169
▁euro	-10.2169
▁branch	-10.2169
▁lcd	-10.2169
▁basil	-10.217
▁phil	-10.217
▁rim	-10.2172
▁dispos	-10.2347
▁fiber	-10.2347
▁kleenex	-10.2347
▁interior	-10.2347
▁foam	-10.2347
▁punch	-10.2347
▁link	-10.2347
▁guy	-10.2349
held	-10.248
▁uncle	-10.2523
▁panasonic	-10.2529
▁puzzle	-10.2529
▁sword	-10.2529
▁indoor	-10.2529
▁easter	-10.2529
▁frost	-10.2529
▁slow	-10.2529
▁shut	-10.253
▁blouse	-10.2714
▁cylinder	-10.2714
▁espresso	-10.2714
▁kirkland	-10.2714
▁ravioli	-10.2714
▁whiskey	-10.2714
▁cider	-10.2714
▁signature	-10.2714
▁spiral	-10.2714
▁loaf	-10.2714
▁rich	-10.2716
▁scan	-10.2716
off	-10.2849
▁beneath	-10.2903
▁canadian	-10.2903
▁enchilada	-10.2903
▁oriental	-10.2903
▁anything	-10.2903
▁berry	-10.2904
▁biscuit	-10.3095
▁nylon	-10.3095
▁spider	-10.3095
▁tortilla	-10.3095
▁yoplait	-10.3095
▁lavender	-10.3095
▁balance	-10.3095
▁garage	-10.3095
▁freezer	-10.3095
▁glare	-10.3095
▁before	-10.3095
▁rub	-10.3096
tuck	-10.3221
▁call	-10.3256
▁preparation	-10.3291
▁prescription	-10.3291
▁professional	-10.3291
▁receipt	-10.3291
▁script	-10.3291
▁twelve	-10.3291
▁quick	-10.3291
▁tiger	-10.3291
▁forward	-10.3291
▁drain	-10.3292
▁strawberries	-10.3491
▁ultra	-10.3491
▁fashion	-10.3491
▁located	-10.3491
▁extend	-10.3491
▁protein	-10.3491
▁weigh	-10.3655
▁count	-10.366
▁entree	-10.3695
▁internet	-10.3695
▁mouthwash	-10.3695
▁random	-10.3695
▁stitched	-10.3695
▁veggie	-10.3695
▁regard	-10.3695
▁roof	-10.3696
▁crust	-10.3696
▁consist	-10.3696
▁indian	-10.3696
▁creat	-10.3806
▁faucet	-10.3904
▁fleece	-10.3904
▁strength	-10.3904
▁cellphone	-10.3904
▁skirt	-10.3904
▁self	-10.3904
▁expo	-10.3905
▁whe	-10.3955
hose	-10.4079
▁equation	-10.4116
▁honeywell	-10.4116
▁hundred	-10.4116
▁patties	-10.4116
▁stroganoff	-10.4116
▁suitcase	-10.4116
▁timothy	-10.4116
▁vinegar	-10.4116
▁credit	-10.4117
▁finish	-10.4117
▁bookcase	-10.4117
▁chunk	-10.43
▁mcdonald	-10.4334
▁australia	-10.4334
▁dashboard	-10.4334
▁savory	-10.4334
▁percent	-10.4334
▁medical	-10.4334
▁stool	-10.4334
▁wax	-10.4334
▁even	-10.434
point	-10.4507
▁digit	-10.4531
▁adjust	-10.4556
▁banner	-10.4556
▁elephant	-10.4556
▁equate	-10.4556
▁fixture	-10.4556
▁fluid	-10.4556
▁halloween	-10.4556
▁instrument	-10.4556
▁operating	-10.4556
▁porcelain	-10.4556
▁verification	-10.4556
▁basketball	-10.4556
▁input	-10.4556
▁loose	-10.4556
▁bathtub	-10.4783
▁berries	-10.4783
▁bubble	-10.4783
▁cheesy	-10.4783
▁earbuds	-10.4783
▁gatorade	-10.4783
▁ibuprofen	-10.4783
▁japanese	-10.4783
▁magnet	-10.4783
▁component	-10.4783
▁ocean	-10.4783
▁know	-10.4784
▁crochet	-10.5016
▁narrow	-10.5016
▁ribbed	-10.5016
▁scotch	-10.5016
▁secret	-10.5016
▁shepherd	-10.5016
▁snowflake	-10.5016
▁supplies	-10.5016
▁chopped	-10.5016
▁thigh	-10.5016
▁voice	-10.5016
▁related	-10.5016
▁brochure	-10.5254
▁formula	-10.5254
▁heavy	-10.5254
▁hershey	-10.5254
▁structure	-10.5254
▁diaper	-10.5254
▁keypad	-10.5254
▁built	-10.5498
▁disney	-10.5498
▁flakes	-10.5498
▁folger	-10.5498
▁library	-10.5498
▁rabbit	-10.5498
▁ruffl	-10.5498
▁scarf	-10.5498
▁tropical	-10.5498
▁edition	-10.5498
▁advanced	-10.5748
▁antenna	-10.5748
▁apartment	-10.5748
▁artificial	-10.5748
▁broken	-10.5748
▁cucumber	-10.5748
▁nestea	-10.5748
▁retriever	-10.5748
▁tylenol	-10.5748
▁erase	-10.5752
▁progress	-10.598
▁miscellan	-10.6004
▁specific	-10.6004
▁bronze	-10.6004
▁burgundy	-10.6004
▁crushed	-10.6004
▁gadget	-10.6004
▁jalapeno	-10.6004
▁ointment	-10.6004
▁organiz	-10.6004
▁resembl	-10.6004
▁tassimo	-10.6004
▁dijon	-10.6004
▁support	-10.6004
toshiba	-10.6004
▁crown	-10.6004
▁nivea	-10.6004
(	-12.3734
